{
"<pad>": 0,
"<unk>": 1,
"<bos>": 2,
"<eos>": 3,
"<u>": 4,
"<a>": 5,
" ": 6,
"!": 7,
"%": 8,
"'": 9,
"(": 10,
")": 11,
"*": 12,
"+": 13,
",": 14,
"-": 15,
".": 16,
"/": 17,
"0": 18,
"1": 19,
"2": 20,
"3": 21,
"4": 22,
"5": 23,
"6": 24,
"7": 25,
"8": 26,
"9": 27,
":": 28,
";": 29,
"<": 30,
"=": 31,
">": 32,
"?": 33,
"^": 34,
"a": 35,
"b": 36,
"c": 37,
"d": 38,
"e": 39,
"f": 40,
"g": 41,
"h": 42,
"i": 43,
"j": 44,
"k": 45,
"l": 46,
"m": 47,
"n": 48,
"o": 49,
"p": 50,
"q": 51,
"r": 52,
"s": 53,
"t": 54,
"u": 55,
"v": 56,
"w": 57,
"x": 58,
"y": 59,
"z": 60,
"«": 61,
"²": 62,
"»": 63,
"×": 64,
"í": 65,
"آ": 66,
"ا": 67,
"ب": 68,
"ت": 69,
"ث": 70,
"ج": 71,
"ح": 72,
"خ": 73,
"د": 74,
"ذ": 75,
"ر": 76,
"ز": 77,
"س": 78,
"ش": 79,
"ص": 80,
"ض": 81,
"ط": 82,
"ظ": 83,
"ع": 84,
"غ": 85,
"ف": 86,
"ق": 87,
"ل": 88,
"م": 89,
"ن": 90,
"ه": 91,
"و": 92,
"پ": 93,
"چ": 94,
"ژ": 95,
"ک": 96,
"گ": 97,
"ی": 98,
"‌": 99,
"—": 100,
"th": 101,
"ou": 102,
"an": 103,
"you": 104,
"is": 105,
"at": 106,
"the": 107,
"ار": 108,
"ست": 109,
"re": 110,
"in": 111,
"wh": 112,
"me": 113,
"te": 114,
"کن": 115,
"یا": 116,
"رو": 117,
"ان": 118,
"می": 119,
"یه": 120,
"what": 121,
"al": 122,
"ای": 123,
"it": 124,
"no": 125,
"er": 126,
"ام": 127,
"من": 128,
"of": 129,
"تو": 130,
"است": 131,
"to": 132,
"اش": 133,
"سی": 134,
"ar": 135,
"on": 136,
"یاد": 137,
"می‌": 138,
"and": 139,
"ing": 140,
"or": 141,
"لی": 142,
"es": 143,
"از": 144,
"el": 145,
"ند": 146,
"are": 147,
"به": 148,
"خو": 149,
"your": 150,
"ری": 151,
"بگ": 152,
"as": 153,
"en": 154,
"do": 155,
"note": 156,
"بر": 157,
"داش": 158,
"ke": 159,
"داشت": 160,
"ال": 161,
"le": 162,
"چیه": 163,
"خت": 164,
"یک": 165,
"ay": 166,
"ow": 167,
"در": 168,
"دی": 169,
"دار": 170,
"بگو": 171,
"یادداشت": 172,
"پای": 173,
"که": 174,
"نی": 175,
"ap": 176,
"را": 177,
"ور": 178,
"چی": 179,
"ll": 180,
"my": 181,
"ti": 182,
"روز": 183,
"ده": 184,
"go": 185,
"اس": 186,
"et": 187,
"how": 188,
"who": 189,
"دو": 190,
"تخت": 191,
"can": 192,
"ce": 193,
"all": 194,
"تا": 195,
"پایتخت": 196,
"ital": 197,
"کنم": 198,
"چند": 199,
"thing": 200,
"بز": 201,
"cap": 202,
"capital": 203,
"هر": 204,
"دم": 205,
"ve": 206,
"na": 207,
"رین": 208,
"i'": 209,
"هست": 210,
"چط": 211,
"od": 212,
"day": 213,
"ma": 214,
"notes": 215,
"st": 216,
"li": 217,
"نو": 218,
"name": 219,
"چه": 220,
"ri": 221,
"اسم": 222,
"ه‌": 223,
"ne": 224,
"وا": 225,
"ون": 226,
"ld": 227,
"one": 228,
"ter": 229,
"سار": 230,
"hel": 231,
"lo": 232,
"gh": 233,
"am": 234,
"هم": 235,
"کی": 236,
"خوب": 237,
"چطور": 238,
"ch": 239,
"شه": 240,
"تر": 241,
"ترین": 242,
"i'm": 243,
"عد": 244,
"ود": 245,
"tell": 246,
"bu": 247,
"time": 248,
"ad": 249,
"than": 250,
"fe": 251,
"per": 252,
"کیه": 253,
"est": 254,
"دست": 255,
"for": 256,
"ev": 257,
"مع": 258,
"سا": 259,
"ها": 260,
"دن": 261,
"رف": 262,
"داری": 263,
"he": 264,
"good": 265,
"ag": 266,
"دیگ": 267,
"like": 268,
"wi": 269,
"کر": 270,
"ate": 271,
"با": 272,
"lis": 273,
"mb": 274,
"mber": 275,
"یع": 276,
"ans": 277,
"ro": 278,
"any": 279,
"رم": 280,
"by": 281,
"now": 282,
"that": 283,
"امروز": 284,
"ab": 285,
"ولی": 286,
"بزر": 287,
"بزرگ": 288,
"ian": 289,
"se": 290,
"باش": 291,
"ha": 292,
"اره": 293,
"un": 294,
"یادداشت‌": 295,
"یعنی": 296,
"کم": 297,
"help": 298,
"thank": 299,
"so": 300,
"co": 301,
"out": 302,
"ما": 303,
"نم": 304,
"gre": 305,
"اف": 306,
"لا": 307,
"ght": 308,
"دوست": 309,
"ther": 310,
"wor": 311,
"خی": 312,
"ain": 313,
"بود": 314,
"هستی": 315,
"about": 316,
"وش": 317,
"عت": 318,
"این": 319,
"سارا": 320,
"ep": 321,
"ه‌ی": 322,
"می‌تو": 323,
"'s": 324,
"have": 325,
"with": 326,
"be": 327,
"here": 328,
"همی": 329,
"mo": 330,
"مث": 331,
"دنیا": 332,
"عدد": 333,
"بده": 334,
"lan": 335,
"ed": 336,
"ple": 337,
"pleas": 338,
"حرف": 339,
"نام": 340,
"بل": 341,
"یادداشت‌ها": 342,
"بان": 343,
"چنده": 344,
"lear": 345,
"lar": 346,
"سل": 347,
"سلام": 348,
"اح": 349,
"ery": 350,
"know": 351,
"ساعت": 352,
"ly": 353,
"ea": 354,
"eng": 355,
"نوی": 356,
"date": 357,
"age": 358,
"but": 359,
"gest": 360,
"ول": 361,
"وق": 362,
"وقت": 363,
"great": 364,
"انگ": 365,
"باز": 366,
"می‌کن": 367,
"ندار": 368,
"کار": 369,
"برای": 370,
"de": 371,
"su": 372,
"sm": 373,
"small": 374,
"ry": 375,
"please": 376,
"nu": 377,
"number": 378,
"می‌شه": 379,
"‌ترین": 380,
"کمک": 381,
"حال": 382,
"ant": 383,
"today": 384,
"math": 385,
"دیگه": 386,
"تم": 387,
"was": 388,
"رسی": 389,
"چیز": 390,
"thanks": 391,
"mu": 392,
"ره": 393,
"feel": 394,
"englis": 395,
"english": 396,
"qu": 397,
"زبان": 398,
"شم": 399,
"jo": 400,
"اد": 401,
"our": 402,
"learn": 403,
"هوا": 404,
"si": 405,
"تق": 406,
"بی": 407,
"هستم": 408,
"رس": 409,
"see": 410,
"ju": 411,
"افظ": 412,
"سو": 413,
"سوال": 414,
"every": 415,
"run": 416,
"انگلی": 417,
"خته": 418,
"دارم": 419,
"ex": 420,
"ثب": 421,
"ثبت": 422,
"ات": 423,
"مو": 424,
"ir": 425,
"شی": 426,
"یکی": 427,
"com": 428,
"ران": 429,
"world": 430,
"تان": 431,
"تانسار": 432,
"تانساری": 433,
"وم": 434,
"tans": 435,
"tansar": 436,
"tansarian": 437,
"ist": 438,
"anything": 439,
"ind": 440,
"اب": 441,
"ater": 442,
"ice": 443,
"ممن": 444,
"ممنون": 445,
"همیشه": 446,
"چطوره": 447,
"عی": 448,
"برنام": 449,
"تار": 450,
"sh": 451,
"sp": 452,
"il": 453,
"باشه": 454,
"ig": 455,
"مثل": 456,
"فت": 457,
"سال": 458,
"ندارم": 459,
"نه": 460,
"not": 461,
"say": 462,
"گی": 463,
"صد": 464,
"بزن": 465,
"شد": 466,
"تقسی": 467,
"تقسیم": 468,
"largest": 469,
"تاب": 470,
"خوبی": 471,
"یق": 472,
"there": 473,
"fri": 474,
"frien": 475,
"friend": 476,
"ot": 477,
"ass": 478,
"just": 479,
"when": 480,
"need": 481,
"فع": 482,
"خود": 483,
"خیلی": 484,
"الی": 485,
"right": 486,
"فار": 487,
"فارسی": 488,
"انگلیسی": 489,
"جوا": 490,
"جواب": 491,
"اه": 492,
"ac": 493,
"gi": 494,
"kes": 495,
"try": 496,
"اج": 497,
"اجرا": 498,
"new": 499,
"'t": 500,
"some": 501,
"something": 502,
"ear": 503,
"ite": 504,
"bet": 505,
"better": 506,
"ste": 507,
"نویس": 508,
"reme": 509,
"remember": 510,
"sure": 511,
"cu": 512,
"جمع": 513,
"سه": 514,
"ls": 515,
"پی": 516,
"تانسارین": 517,
"again": 518,
"tal": 519,
"talk": 520,
"xt": 521,
"مرسی": 522,
"lot": 523,
"می‌کنم": 524,
"ci": 525,
"many": 526,
"more": 527,
"وری": 528,
"up": 529,
"هوش": 530,
"مص": 531,
"تاری": 532,
"تاریخ": 533,
"whats": 534,
"ould": 535,
"pers": 536,
"persian": 537,
"tion": 538,
"صل": 539,
"گفت": 540,
"بگی": 541,
"list": 542,
"au": 543,
"ادام": 544,
"ادامه": 545,
"other": 546,
"wea": 547,
"weather": 548,
"می‌ش": 549,
"lang": 550,
"langu": 551,
"language": 552,
"keep": 553,
"لیست": 554,
"star": 555,
"pw": 556,
"pwd": 557,
"oun": 558,
"plan": 559,
"planet": 560,
"زمی": 561,
"زمین": 562,
"کتاب": 563,
"خوش": 564,
"می‌تونم": 565,
"بپ": 566,
"شرو": 567,
"شروع": 568,
"چیک": 569,
"چیکار": 570,
"assist": 571,
"assistant": 572,
"ask": 573,
"read": 574,
"خد": 575,
"فعلا": 576,
"بعد": 577,
"bye": 578,
"ta": 579,
"take": 580,
"i'll": 581,
"نیست": 582,
"app": 583,
"going": 584,
"things": 585,
"اسمت": 586,
"کسی": 587,
"جام": 588,
"ساخته": 589,
"ریا": 590,
"ریاض": 591,
"ریاضی": 592,
"ink": 593,
"کنی": 594,
"بلدی": 595,
"شمسی": 596,
"ck": 597,
"چق": 598,
"چقدر": 599,
"انی": 600,
"گوش": 601,
"way": 602,
"joke": 603,
"unn": 604,
"unny": 605,
"comp": 606,
"compu": 607,
"computer": 608,
"دا": 609,
"done": 610,
"av": 611,
"بنویس": 612,
"inu": 613,
"sa": 614,
"پا": 615,
"پاک": 616,
"پن": 617,
"uname": 618,
"whoam": 619,
"whoami": 620,
"ایران": 621,
"بزرگ‌ترین": 622,
"حدو": 623,
"حدود": 624,
"آب": 625,
"کو": 626,
"ence": 627,
"sle": 628,
"sleep": 629,
"آما": 630,
"آماده": 631,
"دستی": 632,
"دستیار": 633,
"hello": 634,
"mor": 635,
"بای": 636,
"خودت": 637,
"داشته": 638,
"sel": 639,
"self": 640,
"می‌کنی": 641,
"گرم": 642,
"much": 643,
"answ": 644,
"answer": 645,
"wel": 646,
"عالی": 647,
"ok": 648,
"مصنو": 649,
"مصنوعی": 650,
"هات": 651,
"روی": 652,
"همین": 653,
"گاه": 654,
"ai": 655,
"spea": 656,
"speak": 657,
"ques": 658,
"question": 659,
"dev": 660,
"برنامه‌": 661,
"حی": 662,
"cod": 663,
"code": 664,
"love": 665,
"pi": 666,
"می‌تونی": 667,
"زیاد": 668,
"مثلا": 669,
"بدم": 670,
"give": 671,
"ge": 672,
"add": 673,
"سن": 674,
"تاز": 675,
"تازه": 676,
"دق": 677,
"دقیق": 678,
"دقیقه": 679,
"tw": 680,
"بهتر": 681,
"چیزی": 682,
"فق": 683,
"لم": 684,
"جم": 685,
"بار": 686,
"make": 687,
"id": 688,
"یادگی": 689,
"یادگیری": 690,
"ough": 691,
"زند": 692,
"علی": 693,
"im": 694,
"حافظ": 695,
"con": 696,
"dow": 697,
"down": 698,
"بخو": 699,
"ele": 700,
"ضر": 701,
"ضرب": 702,
"درصد": 703,
"دستور": 704,
"آره": 705,
"ver": 706,
"ity": 707,
"نور": 708,
"ous": 709,
"سیاره": 710,
"منظ": 711,
"منظوم": 712,
"می‌شود": 713,
"big": 714,
"water": 715,
"وان": 716,
"fas": 717,
"اول": 718,
"row": 719,
"درو": 720,
"درود": 721,
"شما": 722,
"کمکت": 723,
"بپرس": 724,
"‌ام": 725,
"خوشحال": 726,
"hi": 727,
"ning": 728,
"ings": 729,
"rob": 730,
"chat": 731,
"what's": 732,
"mind": 733,
"خواب": 734,
"خواست": 735,
"خواستی": 736,
"ni": 737,
"night": 738,
"care": 739,
"next": 740,
"بازم": 741,
"کاره": 742,
"کارهای": 743,
"داره": 744,
"else": 745,
"if": 746,
"حالت": 747,
"چطوری": 748,
"انر": 749,
"انرژ": 750,
"انرژی": 751,
"doing": 752,
"life": 753,
"alright": 754,
"بلدم": 755,
"انجام": 756,
"شده": 757,
"بگم": 758,
"should": 759,
"this": 760,
"cal": 761,
"led": 762,
"think": 763,
"نویسی": 764,
"made": 765,
"ated": 766,
"des": 767,
"همه": 768,
"clo": 769,
"don": 770,
"don't": 771,
"نار": 772,
"ناراح": 773,
"ناراحت": 774,
"میاد": 775,
"اگ": 776,
"اگر": 777,
"get": 778,
"ines": 779,
"منو": 780,
"چرا": 781,
"می‌کنه": 782,
"funny": 783,
"another": 784,
"ذار": 785,
"fav": 786,
"favor": 787,
"favorite": 788,
"mean": 789,
"means": 790,
"learning": 791,
"tern": 792,
"fro": 793,
"from": 794,
"اسمم": 795,
"نا": 796,
"یادداشت‌ه": 797,
"یادداشت‌هام": 798,
"حت": 799,
"مت": 800,
"متن": 801,
"pt": 802,
"کردن": 803,
"پنج": 804,
"شان": 805,
"شانسی": 806,
"rand": 807,
"rando": 808,
"random": 809,
"ظر": 810,
"آن": 811,
"بزرگترین": 812,
"solar": 813,
"sy": 814,
"syste": 815,
"system": 816,
"شید": 817,
"earth": 818,
"دارد": 819,
"عر": 820,
"po": 821,
"کام": 822,
"تمرین": 823,
"pr": 824,
"چهار": 825,
"بخی": 826,
"بخیر": 827,
"خبر": 828,
"hey": 829,
"ready": 830,
"برو": 831,
"خدم": 832,
"خدمتم": 833,
"later": 834,
"yourself": 835,
"دمت": 836,
"کردی": 837,
"happ": 838,
"that's": 839,
"let": 840,
"کارت": 841,
"می‌ز": 842,
"well": 843,
"معرف": 844,
"معرفی": 845,
"برنامه": 846,
"یت": 847,
"باهات": 848,
"نگ": 849,
"نگه": 850,
"call": 851,
"exac": 852,
"exact": 853,
"exactly": 854,
"buil": 855,
"built": 856,
"کرد": 857,
"مال": 858,
"شدم": 859,
"حا": 860,
"حاصل": 861,
"کنار": 862,
"whi": 863,
"which": 864,
"ece": 865,
"زیادی": 866,
"عمو": 867,
"عمومی": 868,
"sk": 869,
"show": 870,
"even": 871,
"واق": 872,
"واقعی": 873,
"هنو": 874,
"هنوز": 875,
"old": 876,
"sof": 877,
"softw": 878,
"software": 879,
"میشی": 880,
"کد": 881,
"own": 882,
"alway": 883,
"always": 884,
"خند": 885,
"نز": 886,
"زار": 887,
"چون": 888,
"جمل": 889,
"light": 890,
"did": 891,
"its": 892,
"har": 893,
"hard": 894,
"best": 895,
"دوستت": 896,
"can't": 897,
"کردم": 898,
"chan": 899,
"اینتر": 900,
"اینترن": 901,
"اینترنت": 902,
"will": 903,
"ثبتش": 904,
"mi": 905,
"سیار": 906,
"cont": 907,
"جدی": 908,
"جدید": 909,
"بس": 910,
"بساز": 911,
"wri": 912,
"write": 913,
"fir": 914,
"first": 915,
"dele": 916,
"delete": 917,
"start": 918,
"الان": 919,
"فی": 920,
"حان": 921,
"lu": 922,
"فقط": 923,
"comm": 924,
"command": 925,
"yes": 926,
"ound": 927,
"never": 928,
"word": 929,
"fam": 930,
"famous": 931,
"land": 932,
"آم": 933,
"آمری": 934,
"آمریک": 935,
"الیا": 936,
"ru": 937,
"br": 938,
"مش": 939,
"ارد": 940,
"ستاره": 941,
"دریا": 942,
"moun": 943,
"mount": 944,
"mountain": 945,
"طول": 946,
"آر": 947,
"آرام": 948,
"ent": 949,
"ca": 950,
"قان": 951,
"قانون": 952,
"ati": 953,
"moon": 954,
"حیوان": 955,
"anim": 956,
"animal": 957,
"خش": 958,
"پیو": 959,
"fi": 960,
"پایتو": 961,
"پایتون": 962,
"py": 963,
"pyth": 964,
"python": 965,
"ram": 966,
"dat": 967,
"fast": 968,
"root": 969,
"مد": 970,
"مدل": 971,
"زبانی": 972,
"squ": 973,
"square": 974,
"جذ": 975,
"جذر": 976,
"ph": 977,
"phone": 978,
"زندگی": 979,
"res": 980,
"bre": 981,
"brea": 982,
"عش": 983,
"عشق": 984,
"سخته": 985,
"سته": 986,
"فصل": 987,
"ستان": 988,
"tomor": 989,
"tomorrow": 990,
"هی": 991,
"رفیق": 992,
"سوا": 993,
"سوالی": 994,
"greet": 995,
"greetings": 996,
"bud": 997,
"budd": 998,
"buddy": 999,
"خداح": 1000,
"خداحافظ": 1001,
"باید": 1002,
"پس": 1003,
"nice": 1004,
"دستت": 1005,
"لط": 1006,
"لطف": 1007,
"لاز": 1008,
"لازم": 1009,
"appre": 1010,
"appreci": 1011,
"appreciate": 1012,
"very": 1013,
"you'": 1014,
"you're": 1015,
"prob": 1016,
"proble": 1017,
"problem": 1018,
"نداری": 1019,
"عالی‌ام": 1020,
"خوبم": 1021,
"وقتی": 1022,
"everything": 1023,
"running": 1024,
"یادت": 1025,
"یادته": 1026,
"می‌دم": 1027,
"بزنم": 1028,
"حل": 1029,
"یادداشت‌هات": 1030,
"called": 1031,
"questions": 1032,
"device": 1033,
"would": 1034,
"برنامه‌نویسی": 1035,
"کرده": 1036,
"اون": 1037,
"باشم": 1038,
"cre": 1039,
"created": 1040,
"devel": 1041,
"develo": 1042,
"developer": 1043,
"wro": 1044,
"wrote": 1045,
"کارهایی": 1046,
"بکنی": 1047,
"چیا": 1048,
"سوالات": 1049,
"گپ": 1050,
"برات": 1051,
"جو": 1052,
"جوک": 1053,
"kind": 1054,
"jokes": 1055,
"clock": 1056,
"چقدره": 1057,
"برنامه‌ام": 1058,
"احس": 1059,
"احساس": 1060,
"احساسات": 1061,
"حس": 1062,
"ناراحتی": 1063,
"انس": 1064,
"انسانی": 1065,
"sad": 1066,
"lau": 1067,
"laugh": 1068,
"بگیر": 1069,
"got": 1070,
"why": 1071,
"too": 1072,
"بهترین": 1073,
"مهر": 1074,
"مهرب": 1075,
"مهربو": 1076,
"مهربونی": 1077,
"دیگه‌": 1078,
"دیگه‌ای": 1079,
"work": 1080,
"perfe": 1081,
"perfec": 1082,
"perfect": 1083,
"makes": 1084,
"بذار": 1085,
"نش": 1086,
"نشون": 1087,
"دوب": 1088,
"دوباره": 1089,
"enough": 1090,
"mist": 1091,
"mista": 1092,
"mistakes": 1093,
"rain": 1094,
"hot": 1095,
"it's": 1096,
"intern": 1097,
"internet": 1098,
"yet": 1099,
"عو": 1100,
"عوض": 1101,
"far": 1102,
"farsi": 1103,
"اض": 1104,
"اضاف": 1105,
"اضافه": 1106,
"برام": 1107,
"حتما": 1108,
"save": 1109,
"want": 1110,
"text": 1111,
"op": 1112,
"open": 1113,
"em": 1114,
"empt": 1115,
"empty": 1116,
"همه‌ی": 1117,
"حذ": 1118,
"حذف": 1119,
"خالی": 1120,
"داریم": 1121,
"clear": 1122,
"fre": 1123,
"fresh": 1124,
"میشه": 1125,
"times": 1126,
"بند": 1127,
"بنداز": 1128,
"انت": 1129,
"انتخ": 1130,
"انتخاب": 1131,
"exe": 1132,
"execu": 1133,
"execute": 1134,
"چشم": 1135,
"نظر": 1136,
"کج": 1137,
"کجاست": 1138,
"iran": 1139,
"هرچند": 1140,
"بزرگ‌": 1141,
"بزرگ‌تر": 1142,
"though": 1143,
"منظومه": 1144,
"منظومه‌ی": 1145,
"دیگر": 1146,
"planets": 1147,
"خور": 1148,
"خورشید": 1149,
"سر": 1150,
"سرعت": 1151,
"بلند": 1152,
"بلندترین": 1153,
"معمو": 1154,
"معمولا": 1155,
"اق": 1156,
"اقیا": 1157,
"اقیانو": 1158,
"اقیانوس": 1159,
"oce": 1160,
"ocean": 1161,
"has": 1162,
"بیا": 1163,
"بیابان": 1164,
"عل": 1165,
"علمی": 1166,
"deser": 1167,
"desert": 1168,
"جا": 1169,
"جاذ": 1170,
"جاذبه": 1171,
"باشد": 1172,
"نس": 1173,
"نسبی": 1174,
"نسبیت": 1175,
"قدم": 1176,
"می‌توان": 1177,
"می‌تواند": 1178,
"شاه": 1179,
"شاهنام": 1180,
"شاهنامه": 1181,
"شا": 1182,
"شاعر": 1183,
"صاح": 1184,
"صاحب": 1185,
"poet": 1186,
"auth": 1187,
"author": 1188,
"سینا": 1189,
"sci": 1190,
"science": 1191,
"giv": 1192,
"gives": 1193,
"mach": 1194,
"machines": 1195,
"داده": 1196,
"الگ": 1197,
"الگوری": 1198,
"الگوریتم": 1199,
"termu": 1200,
"termux": 1201,
"کامل": 1202,
"توکن": 1203,
"توکنای": 1204,
"توکنایز": 1205,
"توکنایزر": 1206,
"mod": 1207,
"model": 1208,
"خودش": 1209,
"برا": 1210,
"برابر": 1211,
"does": 1212,
"بگیرم": 1213,
"روزی": 1214,
"کوچ": 1215,
"کوچک": 1216,
"prac": 1217,
"practi": 1218,
"practice": 1219,
"minu": 1220,
"minute": 1221,
"minutes": 1222,
"bui": 1223,
"build": 1224,
"away": 1225,
"بیش": 1226,
"بیشتر": 1227,
"معنی": 1228,
"دوستی": 1229,
"نک": 1230,
"نکت": 1231,
"نکته‌ی": 1232,
"lit": 1233,
"litt": 1234,
"little": 1235,
"musi": 1236,
"music": 1237,
"اوم": 1238,
"اومدی": 1239,
"آماده‌ام": 1240,
"خوشحالم": 1241,
"تانسارینم": 1242,
"چیکارت": 1243,
"morning": 1244,
"robot": 1245,
"خدافظ": 1246,
"خدانگ": 1247,
"خدانگه": 1248,
"خدانگهدار": 1249,
"بدرود": 1250,
"بعدا": 1251,
"می‌رم": 1252,
"بروم": 1253,
"امی": 1254,
"امید": 1255,
"goodbye": 1256,
"then": 1257,
"off": 1258,
"talking": 1259,
"whenev": 1260,
"whenever": 1261,
"تش": 1262,
"تشکر": 1263,
"ممنونم": 1264,
"ازت": 1265,
"lots": 1266,
"دیگری": 1267,
"welco": 1268,
"welcome": 1269,
"happy": 1270,
"pleasu": 1271,
"pleasure": 1272,
"خوبه": 1273,
"می‌گ": 1274,
"می‌گذ": 1275,
"می‌گذره": 1276,
"آماده‌": 1277,
"آماده‌ی": 1278,
"می‌زنم": 1279,
"how's": 1280,
"asking": 1281,
"اسمتو": 1282,
"هستید": 1283,
"هوشمن": 1284,
"هوشمند": 1285,
"داشتی": 1286,
"دیج": 1287,
"دیجیت": 1288,
"دیجیتال": 1289,
"دستگاه": 1290,
"helpf": 1291,
"helpfu": 1292,
"helpful": 1293,
"pl": 1294,
"pla": 1295,
"place": 1296,
"ساختهت": 1297,
"طرا": 1298,
"طراحی": 1299,
"دسترس": 1300,
"او": 1301,
"کنارت": 1302,
"mak": 1303,
"maker": 1304,
"desig": 1305,
"designe": 1306,
"designed": 1307,
"friendly": 1308,
"bil": 1309,
"biling": 1310,
"bilingu": 1311,
"bilingual": 1312,
"helper": 1313,
"resu": 1314,
"resul": 1315,
"result": 1316,
"piece": 1317,
"کمکی": 1318,
"کارهات": 1319,
"جور": 1320,
"گفتن": 1321,
"زدن": 1322,
"مح": 1323,
"محاس": 1324,
"محاسبه": 1325,
"بپرسی": 1326,
"ski": 1327,
"skill": 1328,
"skills": 1329,
"abil": 1330,
"abilit": 1331,
"abiliti": 1332,
"abilities": 1333,
"gen": 1334,
"gener": 1335,
"general": 1336,
"here's": 1337,
"knowled": 1338,
"knowledge": 1339,
"روزیه": 1340,
"we": 1341,
"were": 1342,
"bor": 1343,
"born": 1344,
"bir": 1345,
"birth": 1346,
"birthday": 1347,
"reall": 1348,
"really": 1349,
"تل": 1350,
"تلاش": 1351,
"feelings": 1352,
"emo": 1353,
"emotion": 1354,
"emotions": 1355,
"hear": 1356,
"heart": 1357,
"them": 1358,
"happines": 1359,
"happiness": 1360,
"جک": 1361,
"شو": 1362,
"شوخی": 1363,
"بخند": 1364,
"بخندون": 1365,
"خنده‌": 1366,
"خنده‌دار": 1367,
"طنز": 1368,
"کنه": 1369,
"موفق": 1370,
"موفقیت": 1371,
"نرم": 1372,
"نرم‌": 1373,
"نرم‌اف": 1374,
"نرم‌افزار": 1375,
"معلم": 1376,
"جمله": 1377,
"دان": 1378,
"دانش": 1379,
"دانش‌": 1380,
"دانش‌آ": 1381,
"دانش‌آمو": 1382,
"دانش‌آموز": 1383,
"تاریکی": 1384,
"بشم": 1385,
"sto": 1386,
"story": 1387,
"dar": 1388,
"dark": 1389,
"told": 1390,
"bin": 1391,
"binar": 1392,
"binary": 1393,
"bo": 1394,
"book": 1395,
"wear": 1396,
"wearing": 1397,
"gl": 1398,
"glass": 1399,
"glasses": 1400,
"two": 1401,
"آف": 1402,
"آفرین": 1403,
"داداش": 1404,
"تع": 1405,
"تعری": 1406,
"تعریف": 1407,
"aw": 1408,
"awes": 1409,
"aweso": 1410,
"awesome": 1411,
"دلم": 1412,
"بهت": 1413,
"می‌ذار": 1414,
"می‌ذارم": 1415,
"lov": 1416,
"lovel": 1417,
"lovely": 1418,
"friendsh": 1419,
"friendshi": 1420,
"friendship": 1421,
"def": 1422,
"defin": 1423,
"definite": 1424,
"definitely": 1425,
"گاهی": 1426,
"اشت": 1427,
"اشتبا": 1428,
"اشتباه": 1429,
"nothing": 1430,
"bad": 1431,
"thats": 1432,
"sti": 1433,
"still": 1434,
"chance": 1435,
"دسترسی": 1436,
"زنده": 1437,
"sunny": 1438,
"che": 1439,
"check": 1440,
"acc": 1441,
"acces": 1442,
"access": 1443,
"sky": 1444,
"insi": 1445,
"inside": 1446,
"inste": 1447,
"instead": 1448,
"رض": 1449,
"رضا": 1450,
"صدام": 1451,
"جان": 1452,
"می‌زنی": 1453,
"می‌زنیم": 1454,
"joh": 1455,
"john": 1456,
"sar": 1457,
"sara": 1458,
"sarah": 1459,
"mike": 1460,
"alex": 1461,
"meet": 1462,
"forget": 1463,
"می‌شنا": 1464,
"می‌شناسی": 1465,
"کدام": 1466,
"حافظه": 1467,
"یادم": 1468,
"cour": 1469,
"course": 1470,
"بسیار": 1471,
"change": 1472,
"continu": 1473,
"continue": 1474,
"نان": 1475,
"ذخی": 1476,
"ذخیره": 1477,
"noted": 1478,
"بخون": 1479,
"نوت": 1480,
"نوت‌": 1481,
"نوت‌ها": 1482,
"یادداشتی": 1483,
"vi": 1484,
"vie": 1485,
"view": 1486,
"remo": 1487,
"remove": 1488,
"wip": 1489,
"wipe": 1490,
"چندم": 1491,
"چندمه": 1492,
"cur": 1493,
"curre": 1494,
"curren": 1495,
"current": 1496,
"ضربدر": 1497,
"حسا": 1498,
"حساب": 1499,
"منه": 1500,
"منهای": 1501,
"تص": 1502,
"تصاد": 1503,
"تصادفی": 1504,
"تاس": 1505,
"شیر": 1506,
"سکه": 1507,
"بین": 1508,
"امت": 1509,
"امتحان": 1510,
"بکن": 1511,
"roll": 1512,
"dice": 1513,
"coin": 1514,
"luck": 1515,
"safe": 1516,
"allow": 1517,
"allowed": 1518,
"می‌دی": 1519,
"می‌دیم": 1520,
"منت": 1521,
"منتظر": 1522,
"okay": 1523,
"sound": 1524,
"sounds": 1525,
"coo": 1526,
"cool": 1527,
"همین‌": 1528,
"همین‌جام": 1529,
"ببی": 1530,
"ببینم": 1531,
"بف": 1532,
"بفرم": 1533,
"بفرما": 1534,
"شهر": 1535,
"قل": 1536,
"قلب": 1537,
"city": 1538,
"فران": 1539,
"فرانسه": 1540,
"برج": 1541,
"fr": 1542,
"fran": 1543,
"france": 1544,
"آلم": 1545,
"آلمان": 1546,
"ger": 1547,
"germany": 1548,
"انگلیس": 1549,
"england": 1550,
"آمریکا": 1551,
"unite": 1552,
"united": 1553,
"stat": 1554,
"states": 1555,
"ترکیه": 1556,
"tu": 1557,
"tur": 1558,
"turke": 1559,
"turkey": 1560,
"known": 1561,
"ژا": 1562,
"ژاپن": 1563,
"jap": 1564,
"japan": 1565,
"ایت": 1566,
"ایتالیا": 1567,
"italy": 1568,
"اسپ": 1569,
"اسپان": 1570,
"اسپانیا": 1571,
"spain": 1572,
"روس": 1573,
"روسیه": 1574,
"rus": 1575,
"russi": 1576,
"russia": 1577,
"چین": 1578,
"chin": 1579,
"china": 1580,
"مصر": 1581,
"eg": 1582,
"egy": 1583,
"egypt": 1584,
"کان": 1585,
"کاناد": 1586,
"کانادا": 1587,
"canad": 1588,
"canada": 1589,
"برز": 1590,
"برزی": 1591,
"برزیل": 1592,
"bra": 1593,
"braz": 1594,
"brazil": 1595,
"استر": 1596,
"استرالیا": 1597,
"aust": 1598,
"austr": 1599,
"austral": 1600,
"australi": 1601,
"australia": 1602,
"یون": 1603,
"یونان": 1604,
"greece": 1605,
"سیاره‌ی": 1606,
"مشت": 1607,
"مشتری": 1608,
"jupi": 1609,
"jupiter": 1610,
"gas": 1611,
"gian": 1612,
"giant": 1613,
"عط": 1614,
"عطارد": 1615,
"smallest": 1616,
"mer": 1617,
"mercu": 1618,
"mercury": 1619,
"نزد": 1620,
"نزدیک": 1621,
"نزدیکترین": 1622,
"clos": 1623,
"closest": 1624,
"کیل": 1625,
"کیلوم": 1626,
"کیلومتر": 1627,
"spe": 1628,
"speed": 1629,
"جوش": 1630,
"کوه": 1631,
"متر": 1632,
"tall": 1633,
"tallest": 1634,
"meter": 1635,
"meters": 1636,
"طولانی": 1637,
"طولانی‌ترین": 1638,
"نیل": 1639,
"lon": 1640,
"longest": 1641,
"river": 1642,
"قاره": 1643,
"آمریکای": 1644,
"جنو": 1645,
"جنوبگ": 1646,
"جنوبگان": 1647,
"contin": 1648,
"continent": 1649,
"continents": 1650,
"ame": 1651,
"ameri": 1652,
"america": 1653,
"antar": 1654,
"antarc": 1655,
"antarcti": 1656,
"antarctica": 1657,
"ven": 1658,
"venu": 1659,
"venus": 1660,
"کش": 1661,
"کشف": 1662,
"جه": 1663,
"جهانی": 1664,
"معرو": 1665,
"معروف": 1666,
"theor": 1667,
"theory": 1668,
"rel": 1669,
"relati": 1670,
"relativ": 1671,
"relativity": 1672,
"اولی": 1673,
"اولین": 1674,
"ماه": 1675,
"آبی": 1676,
"biggest": 1677,
"blu": 1678,
"blue": 1679,
"سری": 1680,
"سریع": 1681,
"سریع‌ترین": 1682,
"خشکی": 1683,
"faste": 1684,
"fastest": 1685,
"اث": 1686,
"اثر": 1687,
"هزار": 1688,
"sha": 1689,
"shah": 1690,
"shahname": 1691,
"shahnameh": 1692,
"wr": 1693,
"writ": 1694,
"writte": 1695,
"written": 1696,
"around": 1697,
"thous": 1698,
"thousand": 1699,
"hafe": 1700,
"hafez": 1701,
"cele": 1702,
"celebr": 1703,
"celebrated": 1704,
"his": 1705,
"سع": 1706,
"سعدی": 1707,
"نویسند": 1708,
"نویسنده‌ی": 1709,
"ایرانی": 1710,
"saad": 1711,
"saadi": 1712,
"ابو": 1713,
"ابوعلی": 1714,
"avi": 1715,
"avic": 1716,
"avicen": 1717,
"avicenna": 1718,
"جمشید": 1719,
"پرس": 1720,
"پرسپ": 1721,
"پرسپولی": 1722,
"پرسپولیس": 1723,
"perse": 1724,
"persepo": 1725,
"persepolis": 1726,
"مول": 1727,
"مولان": 1728,
"مولانا": 1729,
"rumi": 1730,
"کامپیو": 1731,
"کامپیوتر": 1732,
"می‌ده": 1733,
"می‌دهد": 1734,
"arti": 1735,
"artifi": 1736,
"artifici": 1737,
"artificial": 1738,
"intell": 1739,
"intellig": 1740,
"intelligence": 1741,
"pro": 1742,
"prog": 1743,
"program": 1744,
"programm": 1745,
"programming": 1746,
"data": 1747,
"اط": 1748,
"اطلا": 1749,
"اطلاع": 1750,
"اطلاعات": 1751,
"computers": 1752,
"infor": 1753,
"inform": 1754,
"informati": 1755,
"information": 1756,
"alg": 1757,
"algor": 1758,
"algori": 1759,
"algorith": 1760,
"algorithm": 1761,
"step": 1762,
"steps": 1763,
"پایگاه": 1764,
"datab": 1765,
"databas": 1766,
"database": 1767,
"ترم": 1768,
"ترمک": 1769,
"ترمکس": 1770,
"linu": 1771,
"linux": 1772,
"می‌کند": 1773,
"tok": 1774,
"token": 1775,
"tokeni": 1776,
"tokeniz": 1777,
"tokenizer": 1778,
"into": 1779,
"بسازد": 1780,
"pat": 1781,
"pattern": 1782,
"patterns": 1783,
"hu": 1784,
"hum": 1785,
"human": 1786,
"متن‌": 1787,
"متن‌باز": 1788,
"چیست": 1789,
"sour": 1790,
"source": 1791,
"عددی": 1792,
"pri": 1793,
"prime": 1794,
"only": 1795,
"itself": 1796,
"تقری": 1797,
"تقریبا": 1798,
"فیث": 1799,
"فیثا": 1800,
"فیثاغ": 1801,
"فیثاغور": 1802,
"فیثاغورس": 1803,
"sum": 1804,
"perc": 1805,
"percent": 1806,
"شود": 1807,
"دیگران": 1808,
"راه": 1809,
"هفت": 1810,
"هفته": 1811,
"استرا": 1812,
"استراحت": 1813,
"گوشی": 1814,
"rest": 1815,
"مشخ": 1816,
"مشخص": 1817,
"bef": 1818,
"befo": 1819,
"before": 1820,
"بخورم": 1821,
"روزان": 1822,
"روزانه": 1823,
"لیوان": 1824,
"dr": 1825,
"drink": 1826,
"استرس": 1827,
"پیاد": 1828,
"پیاده‌": 1829,
"پیاده‌روی": 1830,
"کاف": 1831,
"کافی": 1832,
"stres": 1833,
"stress": 1834,
"breathe": 1835,
"بخونم": 1836,
"صب": 1837,
"صبحان": 1838,
"صبحانه": 1839,
"سالم": 1840,
"چای": 1841,
"break": 1842,
"breakfast": 1843,
"هد": 1844,
"هدف": 1845,
"پیدا": 1846,
"meaning": 1847,
"سخت": 1848,
"سختی": 1849,
"win": 1850,
"wins": 1851,
"جال": 1852,
"جالب": 1853,
"قش": 1854,
"قشنگه": 1855,
"کوتا": 1856,
"کوتاه": 1857,
"مهم": 1858,
"مهم‌ترین": 1859,
"درس": 1860,
"خسته": 1861,
"هرگ": 1862,
"هرگز": 1863,
"نمی‌شه": 1864,
"میلی": 1865,
"میلیارد": 1866,
"پخش": 1867,
"خوند": 1868,
"خوندن": 1869,
"دواز": 1870,
"دوازده": 1871,
"تف": 1872,
"تفری": 1873,
"تفریق": 1874,
"فعل": 1875,
"قط": 1876,
"قطره": 1877,
"آرامش": 1878,
"شعر": 1879,
"دربار": 1880,
"درباره‌ی": 1881,
"طب": 1882,
"طبیع": 1883,
"طبیعت": 1884,
"بهار": 1885,
"پایی": 1886,
"پاییز": 1887,
"زم": 1888,
"زمستان": 1889,
"تابستان": 1890,
"پیوسته": 1891,
"پول": 1892,
"جمله‌ی": 1893,
"grow": 1894,
"grows": 1895,
"early": 1896,
"curi": 1897,
"curio": 1898,
"curios": 1899,
"curiosity": 1900,
"numbers": 1901,
"qui": 1902,
"quiet": 1903,
"quietly": 1904,
"dre": 1905,
"dream": 1906,
"col": 1907,
"color": 1908,
"calm": 1909,
"deep": 1910,
"ses": 1911,
"sessi": 1912,
"session": 1913,
"conf": 1914,
"confid": 1915,
"confidence": 1916,
"prou": 1917,
"proud": 1918,
"stars": 1919,
"wind": 1920,
"air": 1921,
"pres": 1922,
"pressure": 1923,
"fire": 1924,
"toge": 1925,
"together": 1926,
"mountains": 1927,
"دنیای": 1928,
"exper": 1929,
"expert": 1930,
"once": 1931,
"beg": 1932,
"begin": 1933,
"beginn": 1934,
"beginner": 1935,
"deed": 1936,
"deeds": 1937
}